unsigned char g_model[] = {
  0x18, 0x00, 0x00, 0x00, 0x54, 0x46, 0x4c, 0x33, 0x00, 0x00, 0x0e, 0x00,
  0x18, 0x00, 0x04, 0x00, 0x08, 0x00, 0x0c, 0x00, 0x10, 0x00, 0x14, 0x00,
  0x0e, 0x00, 0x00, 0x00, 0x03, 0x00, 0x00, 0x00, 0x18, 0x0a, 0x00, 0x00,
  0x0c, 0x00, 0x00, 0x00, 0x10, 0x00, 0x00, 0x00, 0x20, 0x00, 0x00, 0x00,
  0x01, 0x00, 0x00, 0x00, 0xbc, 0x05, 0x00, 0x00, 0x0f, 0x00, 0x00, 0x00,
  0x54, 0x4f, 0x43, 0x4f, 0x20, 0x43, 0x6f, 0x6e, 0x76, 0x65, 0x72, 0x74,
  0x65, 0x64, 0x2e, 0x00, 0x0b, 0x00, 0x00, 0x00, 0x90, 0x05, 0x00, 0x00,
  0x7c, 0x05, 0x00, 0x00, 0x24, 0x05, 0x00, 0x00, 0x1c, 0x05, 0x00, 0x00,
  0x0c, 0x01, 0x00, 0x00, 0x04, 0x01, 0x00, 0x00, 0xb4, 0x00, 0x00, 0x00,
  0xac, 0x00, 0x00, 0x00, 0x5c, 0x00, 0x00, 0x00, 0x0c, 0x00, 0x00, 0x00,
  0x04, 0x00, 0x00, 0x00, 0xd8, 0xf6, 0xff, 0xff, 0xb6, 0xfa, 0xff, 0xff,
  0x04, 0x00, 0x00, 0x00, 0x40, 0x00, 0x00, 0x00, 0x92, 0x45, 0xba, 0xba,
  0xd6, 0x10, 0xc9, 0x3e, 0x90, 0x6f, 0x75, 0xbd, 0xd3, 0xbf, 0xdd, 0x3e,
  0xfa, 0x5c, 0x52, 0xbe, 0x98, 0x8d, 0xc4, 0xbe, 0xbe, 0xe1, 0x8e, 0x3e,
  0x4b, 0xa3, 0x86, 0xbe, 0x16, 0xec, 0xad, 0x3e, 0x01, 0x64, 0xaa, 0xbc,
  0x94, 0x76, 0x01, 0xbf, 0xa3, 0x55, 0xbb, 0x3e, 0x90, 0xe5, 0x74, 0xbd,
  0xba, 0xde, 0xd4, 0x3e, 0xe4, 0x3b, 0x39, 0xbe, 0xe0, 0xde, 0xa2, 0x3e,
  0x02, 0xfb, 0xff, 0xff, 0x04, 0x00, 0x00, 0x00, 0x40, 0x00, 0x00, 0x00,
  0x60, 0x2d, 0xb8, 0xbb, 0xa1, 0x25, 0x5f, 0xbf, 0x00, 0x00, 0x00, 0x00,
  0xa7, 0x21, 0x57, 0xbf, 0x00, 0x00, 0x00, 0x00, 0x00, 0x00, 0x00, 0x00,
  0x95, 0xf9, 0xb4, 0x3e, 0x00, 0x00, 0x00, 0x00, 0x15, 0x80, 0xc1, 0xbe,
  0x08, 0x64, 0x29, 0x3f, 0x00, 0x00, 0x00, 0x00, 0x1f, 0x8a, 0xdd, 0x3d,
  0x00, 0x00, 0x00, 0x00, 0x15, 0x3d, 0xb0, 0xbe, 0x00, 0x00, 0x00, 0x00,
  0x68, 0xf6, 0xf7, 0x3d, 0x74, 0xf7, 0xff, 0xff, 0x52, 0xfb, 0xff, 0xff,
  0x04, 0x00, 0x00, 0x00, 0x40, 0x00, 0x00, 0x00, 0x84, 0x90, 0x7e, 0x3e,
  0x71, 0x85, 0xf9, 0x3e, 0x3e, 0x4d, 0xe8, 0xbc, 0x06, 0xc8, 0xca, 0xbe,
  0xea, 0x0c, 0xbe, 0x3e, 0x87, 0xb6, 0x08, 0xbf, 0x44, 0x1e, 0x81, 0x3e,
  0x5c, 0x2c, 0xf2, 0xbd, 0x9d, 0x9e, 0xfb, 0x3e, 0x18, 0x53, 0xc0, 0x3e,
  0x51, 0xaa, 0xc6, 0x3e, 0xcf, 0x51, 0xd1, 0xbd, 0xc5, 0xa3, 0xb7, 0xbe,
  0x41, 0xe8, 0xe8, 0xbd, 0x00, 0x00, 0x00, 0x00, 0x5a, 0xfa, 0x1c, 0xbd,
  0xc4, 0xf7, 0xff, 0xff, 0xa2, 0xfb, 0xff, 0xff, 0x04, 0x00, 0x00, 0x00,
  0x00, 0x04, 0x00, 0x00, 0x59, 0x31, 0xa5, 0xbe, 0x3d, 0xea, 0x93, 0xbe,
  0xc8, 0xf8, 0xce, 0xbd, 0x38, 0x34, 0x8d, 0x3e, 0x09, 0xc4, 0xab, 0x3e,
  0x7c, 0x76, 0x5a, 0xbe, 0x8d, 0xf9, 0x05, 0x3f, 0xa0, 0x88, 0x0e, 0x3c,
  0x9f, 0x57, 0xbf, 0x3e, 0xa1, 0x0e, 0x06, 0xbe, 0xe6, 0xfc, 0x47, 0x3e,
  0x62, 0x2c, 0x90, 0x3e, 0x24, 0x8c, 0x8b, 0xbe, 0x4b, 0xa7, 0xc0, 0xbe,
  0x0b, 0x45, 0x94, 0x3e, 0x06, 0x01, 0xc2, 0x3d, 0xd0, 0x3a, 0x46, 0xbe,
  0x0a, 0x5a, 0x67, 0xbe, 0x4b, 0x0c, 0x8a, 0x3e, 0x29, 0xbe, 0x01, 0xbe,
  0x36, 0xea, 0x8a, 0xbe, 0x31, 0x4d, 0x6d, 0xbe, 0xa9, 0x94, 0xe4, 0xbe,
  0x16, 0xad, 0x1d, 0x3e, 0x63, 0xea, 0x08, 0xbf, 0x2f, 0x37, 0xbc, 0x3e,
  0x40, 0x30, 0xd8, 0xbb, 0x94, 0xd3, 0xe2, 0x3d, 0xc8, 0xbc, 0xbe, 0xbd,
  0x3a, 0x00, 0xd5, 0x3e, 0xa0, 0x68, 0xf2, 0xbd, 0x75, 0x67, 0x68, 0xbe,
  0xf8, 0x2b, 0x22, 0xbd, 0x48, 0x76, 0x94, 0xbd, 0x6e, 0xb2, 0xbb, 0xbe,
  0xd8, 0x98, 0x13, 0x3e, 0xcd, 0xbb, 0xb7, 0xbe, 0x30, 0x43, 0x38, 0xbe,
  0xf0, 0x4a, 0xca, 0xbe, 0xca, 0xf4, 0x96, 0xbe, 0xec, 0xf6, 0x61, 0xbe,
  0xca, 0x63, 0x5a, 0x3e, 0xe0, 0x70, 0x72, 0xbe, 0xf8, 0x4d, 0x21, 0xbe,
  0x54, 0x1c, 0x90, 0xbe, 0x23, 0x79, 0x51, 0xbd, 0x22, 0xea, 0x67, 0x3e,
  0xae, 0xa5, 0xd7, 0xbe, 0xb5, 0x04, 0x77, 0x3e, 0x10, 0xb3, 0x09, 0x3f,
  0x5a, 0xa2, 0x61, 0xbe, 0x56, 0xcf, 0xd6, 0x3e, 0x3c, 0x51, 0x14, 0xbe,
  0x1c, 0x1f, 0xef, 0x3d, 0x75, 0xc0, 0xb9, 0xbe, 0xd2, 0x89, 0x1b, 0xbe,
  0x5c, 0x57, 0xc0, 0x3e, 0xec, 0x3a, 0x9f, 0xbe, 0x27, 0x3e, 0x9c, 0x3e,
  0x8d, 0x75, 0x88, 0xbd, 0x1c, 0xed, 0xfd, 0xbd, 0x55, 0x4d, 0x4e, 0x3d,
  0x92, 0xb4, 0x22, 0x3e, 0xd5, 0x5d, 0xee, 0x3d, 0x1f, 0x4d, 0x55, 0xbe,
  0x28, 0x55, 0x1f, 0xbc, 0xd7, 0x86, 0xd4, 0xbe, 0x88, 0x18, 0xb0, 0xbd,
  0xa4, 0x97, 0x39, 0xbe, 0x43, 0x2f, 0xcc, 0x3e, 0x8d, 0xa2, 0x8b, 0x3e,
  0x40, 0xa7, 0x57, 0xbe, 0x94, 0x7b, 0xec, 0xbe, 0x62, 0x32, 0x06, 0x3f,
  0xd6, 0xd8, 0x15, 0x3e, 0xe8, 0xae, 0x4e, 0x3e, 0xae, 0x79, 0x50, 0x3e,
  0x22, 0xba, 0xb1, 0xbe, 0xda, 0x7e, 0x5d, 0x3e, 0xd0, 0x63, 0x81, 0xbe,
  0xea, 0x3f, 0xa7, 0x3e, 0xa4, 0xb2, 0x28, 0x3f, 0xa0, 0xc0, 0x69, 0xbd,
  0xf2, 0x39, 0x63, 0x3e, 0x3c, 0x6e, 0xfd, 0xbd, 0xf0, 0xe3, 0xb8, 0x3c,
  0xc3, 0x14, 0x01, 0xbf, 0xc9, 0xa0, 0xb8, 0x3e, 0x7d, 0x72, 0x86, 0x3e,
  0x23, 0x91, 0x4d, 0xbf, 0x5e, 0x58, 0x57, 0x3e, 0x50, 0xa7, 0x9f, 0x3e,
  0x20, 0x0d, 0x09, 0xbe, 0xb6, 0xf2, 0x7e, 0x3d, 0x3c, 0x55, 0xec, 0x3d,
  0x70, 0xe4, 0x33, 0xbe, 0x27, 0x6c, 0x91, 0x3e, 0x10, 0x83, 0x04, 0x3d,
  0x5c, 0xca, 0xcc, 0xbd, 0xc6, 0x85, 0xdf, 0xbe, 0xf5, 0xbb, 0x96, 0x3e,
  0xae, 0x80, 0x80, 0xbe, 0x52, 0x08, 0x70, 0x3e, 0x6c, 0x20, 0xd3, 0x3d,
  0xa9, 0xce, 0xbc, 0x3e, 0x13, 0xfb, 0x28, 0xbd, 0x7c, 0xd7, 0x0f, 0xbe,
  0xf0, 0xa5, 0x87, 0xbe, 0x47, 0xb9, 0x89, 0x3e, 0x0c, 0x62, 0xa1, 0x3e,
  0xd5, 0x9c, 0xcd, 0xbe, 0xa3, 0xa0, 0x36, 0x3e, 0x70, 0x5e, 0x7e, 0xbd,
  0x5b, 0x39, 0xdb, 0x3d, 0x62, 0x85, 0x58, 0x3e, 0x1f, 0xb3, 0x02, 0xbe,
  0x04, 0xb6, 0xdd, 0x3d, 0xa0, 0x55, 0x90, 0xbe, 0x9d, 0x4b, 0xc3, 0xbe,
  0x31, 0x80, 0x4b, 0xbe, 0x71, 0xa9, 0xf3, 0x3d, 0xf0, 0xf8, 0x0b, 0x3e,
  0x40, 0x79, 0x16, 0xbd, 0x67, 0x44, 0x78, 0x3e, 0x74, 0xfc, 0x18, 0xbe,
  0x93, 0x91, 0x0f, 0xbe, 0x24, 0xab, 0xf2, 0x3d, 0x88, 0xf7, 0x9b, 0xbe,
  0x20, 0x40, 0x89, 0xbe, 0x6f, 0x02, 0x4c, 0xbd, 0xd3, 0xdb, 0xc3, 0x3e,
  0x8c, 0x48, 0x05, 0xbf, 0xef, 0xaf, 0xa7, 0x3e, 0x8a, 0x73, 0x53, 0x3e,
  0x04, 0x2a, 0x27, 0xbf, 0xc7, 0x1b, 0xc2, 0x3e, 0xcc, 0xbe, 0x2a, 0xbc,
  0x73, 0x16, 0x25, 0x3f, 0x92, 0x86, 0x25, 0x3e, 0x36, 0x80, 0x31, 0x3d,
  0xe4, 0x2b, 0xe6, 0x3d, 0xad, 0x4e, 0x86, 0x3b, 0xba, 0x5f, 0x5d, 0x3e,
  0xbe, 0x58, 0x2d, 0xbf, 0x81, 0x55, 0x89, 0x3e, 0x7c, 0x91, 0x16, 0xbf,
  0x00, 0x8e, 0x43, 0x3d, 0xdc, 0xdf, 0x99, 0xbe, 0xcc, 0xcf, 0xd3, 0x3d,
  0x58, 0x8e, 0x8f, 0xbe, 0xac, 0x2f, 0xb5, 0x3e, 0xae, 0xa4, 0xb0, 0xbe,
  0x5f, 0xca, 0xe4, 0xbe, 0xd3, 0x1e, 0x0e, 0x3f, 0xa3, 0xfa, 0x97, 0x3e,
  0x92, 0x55, 0xcc, 0x3e, 0xe0, 0x80, 0xde, 0x3c, 0x8b, 0xab, 0x80, 0xbe,
  0xba, 0x06, 0x3f, 0x3e, 0xc8, 0x02, 0xb7, 0xbd, 0x46, 0x52, 0x02, 0xbe,
  0x36, 0x00, 0x26, 0xbf, 0xf2, 0x05, 0x2e, 0x3e, 0x30, 0x9a, 0xa4, 0xbd,
  0x6a, 0xff, 0x1e, 0x3e, 0xc6, 0x96, 0x49, 0x3e, 0x87, 0x66, 0x39, 0xbe,
  0x69, 0x1e, 0x72, 0xbe, 0xde, 0xe3, 0x8b, 0xbe, 0x18, 0xa7, 0x56, 0xbe,
  0x40, 0x49, 0xfb, 0xbc, 0x49, 0x79, 0x67, 0x3e, 0x2a, 0xf6, 0x19, 0x3e,
  0x7c, 0xe3, 0xca, 0x3d, 0x4a, 0xb3, 0x30, 0x3e, 0xce, 0x24, 0x7b, 0x3e,
  0xae, 0x7a, 0x47, 0x3e, 0xb3, 0xad, 0xa2, 0xbe, 0x40, 0x29, 0x3f, 0xbd,
  0x03, 0x7c, 0xbc, 0xbe, 0xe8, 0x8d, 0x77, 0x3d, 0x48, 0xdb, 0x19, 0xbd,
  0xe0, 0x09, 0x93, 0xbe, 0xa2, 0x3e, 0x02, 0x3e, 0xa2, 0x52, 0xc1, 0xbe,
  0x98, 0x07, 0x72, 0x3b, 0xd4, 0xa9, 0xac, 0xbe, 0x4b, 0x9b, 0x9f, 0x3e,
  0x76, 0x8e, 0x89, 0xbe, 0xbf, 0xae, 0xb4, 0xbd, 0x44, 0x10, 0xd2, 0xbe,
  0xa5, 0x24, 0xcd, 0xbe, 0x46, 0x2f, 0x7b, 0x3e, 0x5e, 0x5a, 0x3c, 0x3e,
  0x86, 0xce, 0x5d, 0xbe, 0x8a, 0x65, 0xb3, 0x3e, 0x00, 0x2d, 0x88, 0x3b,
  0x4e, 0xac, 0x92, 0xbe, 0xfc, 0x1b, 0xb6, 0x3e, 0x52, 0x66, 0xa5, 0xbe,
  0x6d, 0x6c, 0x2c, 0x3e, 0x84, 0x8d, 0xf8, 0xbe, 0x6a, 0xd5, 0x0a, 0x3e,
  0x16, 0xc6, 0xca, 0x3c, 0xcb, 0xe0, 0xc0, 0x3e, 0x14, 0x5a, 0xf5, 0xbc,
  0xb8, 0xb7, 0x4f, 0xbe, 0xac, 0x95, 0x30, 0xbe, 0x35, 0x65, 0xdb, 0x3e,
  0x2a, 0x85, 0x41, 0x3e, 0x22, 0x44, 0xdc, 0xbe, 0xa0, 0xc7, 0x63, 0xbc,
  0xa2, 0xd6, 0x55, 0x3e, 0x9c, 0x41, 0x9c, 0x3d, 0x93, 0x75, 0x9e, 0xbd,
  0xdc, 0x7e, 0x8a, 0xbd, 0x60, 0xd0, 0xd8, 0xbd, 0x9d, 0x2c, 0x97, 0x3e,
  0xe3, 0xbc, 0x76, 0xbe, 0x29, 0x08, 0xea, 0xbe, 0x91, 0x58, 0xb5, 0x3e,
  0xf7, 0x48, 0x27, 0xbe, 0xb0, 0x90, 0x9a, 0x3c, 0x09, 0x76, 0xb4, 0xbd,
  0xc0, 0x63, 0x1e, 0x3c, 0x77, 0xa1, 0xc3, 0xbe, 0x92, 0xba, 0x62, 0x3e,
  0x58, 0xcd, 0x0a, 0xbd, 0x6c, 0xb5, 0x21, 0xbe, 0x6b, 0x64, 0xc7, 0x3e,
  0x68, 0xde, 0x89, 0xbe, 0xfd, 0xb5, 0x99, 0x3e, 0xa6, 0x52, 0x61, 0x3e,
  0xc4, 0xb7, 0x91, 0xbd, 0x6e, 0xaa, 0x60, 0x3e, 0x0b, 0x50, 0x82, 0xbe,
  0xc7, 0x5b, 0x9f, 0xbe, 0x0e, 0xed, 0xb2, 0xbe, 0xea, 0xd0, 0x8c, 0xbe,
  0xc6, 0xa5, 0x3f, 0x3e, 0x83, 0xe6, 0xc0, 0x3e, 0x15, 0x23, 0x51, 0x3d,
  0xec, 0x62, 0x84, 0xbd, 0xfc, 0xec, 0x10, 0x3e, 0x3e, 0x10, 0x8a, 0xbe,
  0x40, 0x73, 0x0b, 0x3c, 0xd6, 0x37, 0xdf, 0xbd, 0xee, 0xbb, 0x91, 0xbe,
  0x86, 0x2f, 0xa6, 0x3e, 0xe7, 0x30, 0x66, 0xbe, 0x1d, 0x2e, 0x61, 0xbe,
  0x79, 0x15, 0x8e, 0x3d, 0x9a, 0xff, 0x2b, 0x3e, 0x32, 0x78, 0x8c, 0xbe,
  0xa5, 0x69, 0xd3, 0x3e, 0xc2, 0x64, 0x0b, 0xbe, 0xd4, 0xfb, 0xff, 0xff,
  0xb2, 0xff, 0xff, 0xff, 0x04, 0x00, 0x00, 0x00, 0x40, 0x00, 0x00, 0x00,
  0xbb, 0x54, 0x1a, 0xbf, 0xf1, 0x40, 0x7b, 0xbf, 0xdb, 0x26, 0x05, 0x3f,
  0x77, 0xad, 0x18, 0x3f, 0x7b, 0xa1, 0x5d, 0x3f, 0x39, 0xa5, 0xc3, 0x3f,
  0x24, 0x5c, 0x0e, 0xbe, 0xf6, 0x71, 0x76, 0x3e, 0xbc, 0x1d, 0x8b, 0xbf,
  0xa7, 0x33, 0x81, 0x3f, 0x7a, 0xfe, 0xa3, 0x3f, 0xcf, 0x9a, 0xb5, 0x3e,
  0x56, 0x44, 0xeb, 0x3e, 0x23, 0x8e, 0xbe, 0x3d, 0x54, 0xcd, 0xc8, 0x3e,
  0x05, 0x61, 0x83, 0x3e, 0x00, 0x00, 0x06, 0x00, 0x08, 0x00, 0x04, 0x00,
  0x06, 0x00, 0x00, 0x00, 0x04, 0x00, 0x00, 0x00, 0x04, 0x00, 0x00, 0x00,
  0xf8, 0x47, 0xc9, 0xbe, 0x3c, 0xfc, 0xff, 0xff, 0x0c, 0x00, 0x14, 0x00,
  0x04, 0x00, 0x08, 0x00, 0x0c, 0x00, 0x10, 0x00, 0x0c, 0x00, 0x00, 0x00,
  0x20, 0x00, 0x00, 0x00, 0x14, 0x00, 0x00, 0x00, 0x08, 0x00, 0x00, 0x00,
  0x60, 0x03, 0x00, 0x00, 0x01, 0x00, 0x00, 0x00, 0x00, 0x00, 0x00, 0x00,
  0x01, 0x00, 0x00, 0x00, 0x01, 0x00, 0x00, 0x00, 0x0a, 0x00, 0x00, 0x00,
  0x58, 0x02, 0x00, 0x00, 0x9c, 0x01, 0x00, 0x00, 0x64, 0x00, 0x00, 0x00,
  0xc0, 0x00, 0x00, 0x00, 0x18, 0x00, 0x00, 0x00, 0xe4, 0x01, 0x00, 0x00,
  0x40, 0x01, 0x00, 0x00, 0xf8, 0x00, 0x00, 0x00, 0x6c, 0x02, 0x00, 0x00,
  0xdc, 0x02, 0x00, 0x00, 0x36, 0xfd, 0xff, 0xff, 0x10, 0x00, 0x00, 0x00,
  0x0a, 0x00, 0x00, 0x00, 0x14, 0x00, 0x00, 0x00, 0x30, 0x00, 0x00, 0x00,
  0x02, 0x00, 0x00, 0x00, 0x01, 0x00, 0x00, 0x00, 0x10, 0x00, 0x00, 0x00,
  0x19, 0x00, 0x00, 0x00, 0x73, 0x65, 0x71, 0x75, 0x65, 0x6e, 0x74, 0x69,
  0x61, 0x6c, 0x5f, 0x32, 0x2f, 0x64, 0x65, 0x6e, 0x73, 0x65, 0x5f, 0x34,
  0x2f, 0x52, 0x65, 0x6c, 0x75, 0x00, 0x00, 0x00, 0xdc, 0xfc, 0xff, 0xff,
  0x7a, 0xfd, 0xff, 0xff, 0x10, 0x00, 0x00, 0x00, 0x09, 0x00, 0x00, 0x00,
  0x14, 0x00, 0x00, 0x00, 0x4c, 0x00, 0x00, 0x00, 0x02, 0x00, 0x00, 0x00,
  0x10, 0x00, 0x00, 0x00, 0x01, 0x00, 0x00, 0x00, 0x34, 0x00, 0x00, 0x00,
  0x73, 0x65, 0x71, 0x75, 0x65, 0x6e, 0x74, 0x69, 0x61, 0x6c, 0x5f, 0x32,
  0x2f, 0x64, 0x65, 0x6e, 0x73, 0x65, 0x5f, 0x34, 0x2f, 0x4d, 0x61, 0x74,
  0x4d, 0x75, 0x6c, 0x2f, 0x52, 0x65, 0x61, 0x64, 0x56, 0x61, 0x72, 0x69,
  0x61, 0x62, 0x6c, 0x65, 0x4f, 0x70, 0x2f, 0x74, 0x72, 0x61, 0x6e, 0x73,
  0x70, 0x6f, 0x73, 0x65, 0x00, 0x00, 0x00, 0x00, 0x3c, 0xfd, 0xff, 0xff,
  0xda, 0xfd, 0xff, 0xff, 0x10, 0x00, 0x00, 0x00, 0x08, 0x00, 0x00, 0x00,
  0x10, 0x00, 0x00, 0x00, 0x34, 0x00, 0x00, 0x00, 0x01, 0x00, 0x00, 0x00,
  0x10, 0x00, 0x00, 0x00, 0x20, 0x00, 0x00, 0x00, 0x73, 0x65, 0x71, 0x75,
  0x65, 0x6e, 0x74, 0x69, 0x61, 0x6c, 0x5f, 0x32, 0x2f, 0x64, 0x65, 0x6e,
  0x73, 0x65, 0x5f, 0x34, 0x2f, 0x4d, 0x61, 0x74, 0x4d, 0x75, 0x6c, 0x5f,
  0x62, 0x69, 0x61, 0x73, 0x00, 0x00, 0x00, 0x00, 0x84, 0xfd, 0xff, 0xff,
  0x22, 0xfe, 0xff, 0xff, 0x10, 0x00, 0x00, 0x00, 0x07, 0x00, 0x00, 0x00,
  0x14, 0x00, 0x00, 0x00, 0x30, 0x00, 0x00, 0x00, 0x02, 0x00, 0x00, 0x00,
  0x01, 0x00, 0x00, 0x00, 0x10, 0x00, 0x00, 0x00, 0x19, 0x00, 0x00, 0x00,
  0x73, 0x65, 0x71, 0x75, 0x65, 0x6e, 0x74, 0x69, 0x61, 0x6c, 0x5f, 0x32,
  0x2f, 0x64, 0x65, 0x6e, 0x73, 0x65, 0x5f, 0x35, 0x2f, 0x52, 0x65, 0x6c,
  0x75, 0x00, 0x00, 0x00, 0xc8, 0xfd, 0xff, 0xff, 0x66, 0xfe, 0xff, 0xff,
  0x10, 0x00, 0x00, 0x00, 0x06, 0x00, 0x00, 0x00, 0x10, 0x00, 0x00, 0x00,
  0x34, 0x00, 0x00, 0x00, 0x01, 0x00, 0x00, 0x00, 0x10, 0x00, 0x00, 0x00,
  0x20, 0x00, 0x00, 0x00, 0x73, 0x65, 0x71, 0x75, 0x65, 0x6e, 0x74, 0x69,
  0x61, 0x6c, 0x5f, 0x32, 0x2f, 0x64, 0x65, 0x6e, 0x73, 0x65, 0x5f, 0x35,
  0x2f, 0x4d, 0x61, 0x74, 0x4d, 0x75, 0x6c, 0x5f, 0x62, 0x69, 0x61, 0x73,
  0x00, 0x00, 0x00, 0x00, 0x10, 0xfe, 0xff, 0xff, 0xae, 0xfe, 0xff, 0xff,
  0x10, 0x00, 0x00, 0x00, 0x05, 0x00, 0x00, 0x00, 0x14, 0x00, 0x00, 0x00,
  0x2c, 0x00, 0x00, 0x00, 0x02, 0x00, 0x00, 0x00, 0x01, 0x00, 0x00, 0x00,
  0x01, 0x00, 0x00, 0x00, 0x0d, 0x00, 0x00, 0x00, 0x64, 0x65, 0x6e, 0x73,
  0x65, 0x5f, 0x34, 0x5f, 0x69, 0x6e, 0x70, 0x75, 0x74, 0x00, 0x00, 0x00,
  0x08, 0x00, 0x0c, 0x00, 0x04, 0x00, 0x08, 0x00, 0x08, 0x00, 0x00, 0x00,
  0x10, 0x00, 0x00, 0x00, 0x04, 0x00, 0x00, 0x00, 0x01, 0x00, 0x00, 0x00,
  0x00, 0x00, 0x7f, 0x43, 0x01, 0x00, 0x00, 0x00, 0x00, 0x00, 0x00, 0x00,
  0x06, 0xff, 0xff, 0xff, 0x10, 0x00, 0x00, 0x00, 0x04, 0x00, 0x00, 0x00,
  0x14, 0x00, 0x00, 0x00, 0x4c, 0x00, 0x00, 0x00, 0x02, 0x00, 0x00, 0x00,
  0x10, 0x00, 0x00, 0x00, 0x10, 0x00, 0x00, 0x00, 0x34, 0x00, 0x00, 0x00,
  0x73, 0x65, 0x71, 0x75, 0x65, 0x6e, 0x74, 0x69, 0x61, 0x6c, 0x5f, 0x32,
  0x2f, 0x64, 0x65, 0x6e, 0x73, 0x65, 0x5f, 0x35, 0x2f, 0x4d, 0x61, 0x74,
  0x4d, 0x75, 0x6c, 0x2f, 0x52, 0x65, 0x61, 0x64, 0x56, 0x61, 0x72, 0x69,
  0x61, 0x62, 0x6c, 0x65, 0x4f, 0x70, 0x2f, 0x74, 0x72, 0x61, 0x6e, 0x73,
  0x70, 0x6f, 0x73, 0x65, 0x00, 0x00, 0x00, 0x00, 0xc8, 0xfe, 0xff, 0xff,
  0x66, 0xff, 0xff, 0xff, 0x10, 0x00, 0x00, 0x00, 0x03, 0x00, 0x00, 0x00,
  0x14, 0x00, 0x00, 0x00, 0x20, 0x00, 0x00, 0x00, 0x02, 0x00, 0x00, 0x00,
  0x01, 0x00, 0x00, 0x00, 0x01, 0x00, 0x00, 0x00, 0x08, 0x00, 0x00, 0x00,
  0x49, 0x64, 0x65, 0x6e, 0x74, 0x69, 0x74, 0x79, 0x00, 0x00, 0x00, 0x00,
  0xfc, 0xfe, 0xff, 0xff, 0x9a, 0xff, 0xff, 0xff, 0x10, 0x00, 0x00, 0x00,
  0x02, 0x00, 0x00, 0x00, 0x14, 0x00, 0x00, 0x00, 0x50, 0x00, 0x00, 0x00,
  0x02, 0x00, 0x00, 0x00, 0x01, 0x00, 0x00, 0x00, 0x10, 0x00, 0x00, 0x00,
  0x34, 0x00, 0x00, 0x00, 0x73, 0x65, 0x71, 0x75, 0x65, 0x6e, 0x74, 0x69,
  0x61, 0x6c, 0x5f, 0x32, 0x2f, 0x64, 0x65, 0x6e, 0x73, 0x65, 0x5f, 0x36,
  0x2f, 0x4d, 0x61, 0x74, 0x4d, 0x75, 0x6c, 0x2f, 0x52, 0x65, 0x61, 0x64,
  0x56, 0x61, 0x72, 0x69, 0x61, 0x62, 0x6c, 0x65, 0x4f, 0x70, 0x2f, 0x74,
  0x72, 0x61, 0x6e, 0x73, 0x70, 0x6f, 0x73, 0x65, 0x00, 0x00, 0x00, 0x00,
  0x04, 0x00, 0x06, 0x00, 0x04, 0x00, 0x00, 0x00, 0x00, 0x00, 0x0e, 0x00,
  0x14, 0x00, 0x04, 0x00, 0x00, 0x00, 0x08, 0x00, 0x0c, 0x00, 0x10, 0x00,
  0x0e, 0x00, 0x00, 0x00, 0x10, 0x00, 0x00, 0x00, 0x01, 0x00, 0x00, 0x00,
  0x10, 0x00, 0x00, 0x00, 0x34, 0x00, 0x00, 0x00, 0x01, 0x00, 0x00, 0x00,
  0x01, 0x00, 0x00, 0x00, 0x20, 0x00, 0x00, 0x00, 0x73, 0x65, 0x71, 0x75,
  0x65, 0x6e, 0x74, 0x69, 0x61, 0x6c, 0x5f, 0x32, 0x2f, 0x64, 0x65, 0x6e,
  0x73, 0x65, 0x5f, 0x36, 0x2f, 0x4d, 0x61, 0x74, 0x4d, 0x75, 0x6c, 0x5f,
  0x62, 0x69, 0x61, 0x73, 0x00, 0x00, 0x00, 0x00, 0xb8, 0xff, 0xff, 0xff,
  0x03, 0x00, 0x00, 0x00, 0x98, 0x00, 0x00, 0x00, 0x44, 0x00, 0x00, 0x00,
  0x04, 0x00, 0x00, 0x00, 0x88, 0xff, 0xff, 0xff, 0x00, 0x00, 0x00, 0x08,
  0x10, 0x00, 0x00, 0x00, 0x1c, 0x00, 0x00, 0x00, 0x28, 0x00, 0x00, 0x00,
  0x1c, 0x00, 0x00, 0x00, 0x03, 0x00, 0x00, 0x00, 0x07, 0x00, 0x00, 0x00,
  0x08, 0x00, 0x00, 0x00, 0x09, 0x00, 0x00, 0x00, 0x01, 0x00, 0x00, 0x00,
  0x00, 0x00, 0x00, 0x00, 0x00, 0x00, 0x00, 0x00, 0x04, 0x00, 0x04, 0x00,
  0x04, 0x00, 0x00, 0x00, 0xc4, 0xff, 0xff, 0xff, 0x00, 0x00, 0x00, 0x08,
  0x10, 0x00, 0x00, 0x00, 0x1c, 0x00, 0x00, 0x00, 0x24, 0x00, 0x00, 0x00,
  0x1c, 0x00, 0x00, 0x00, 0x03, 0x00, 0x00, 0x00, 0x04, 0x00, 0x00, 0x00,
  0x05, 0x00, 0x00, 0x00, 0x06, 0x00, 0x00, 0x00, 0x01, 0x00, 0x00, 0x00,
  0x07, 0x00, 0x00, 0x00, 0x00, 0x00, 0x00, 0x00, 0x8e, 0xff, 0xff, 0xff,
  0x00, 0x00, 0x00, 0x01, 0x14, 0x00, 0x18, 0x00, 0x00, 0x00, 0x08, 0x00,
  0x0c, 0x00, 0x07, 0x00, 0x10, 0x00, 0x00, 0x00, 0x00, 0x00, 0x14, 0x00,
  0x14, 0x00, 0x00, 0x00, 0x00, 0x00, 0x00, 0x08, 0x10, 0x00, 0x00, 0x00,
  0x1c, 0x00, 0x00, 0x00, 0x24, 0x00, 0x00, 0x00, 0x1c, 0x00, 0x00, 0x00,
  0x03, 0x00, 0x00, 0x00, 0x01, 0x00, 0x00, 0x00, 0x02, 0x00, 0x00, 0x00,
  0x03, 0x00, 0x00, 0x00, 0x01, 0x00, 0x00, 0x00, 0x04, 0x00, 0x00, 0x00,
  0x00, 0x00, 0x00, 0x00, 0xde, 0xff, 0xff, 0xff, 0x00, 0x00, 0x00, 0x01,
  0x01, 0x00, 0x00, 0x00, 0x04, 0x00, 0x00, 0x00, 0xfa, 0xff, 0xff, 0xff,
  0x00, 0x09, 0x06, 0x00, 0x06, 0x00, 0x05, 0x00, 0x06, 0x00, 0x00, 0x00,
  0x00, 0x09, 0x06, 0x00, 0x08, 0x00, 0x07, 0x00, 0x06, 0x00, 0x00, 0x00,
  0x00, 0x00, 0x00, 0x09
};
unsigned int g_model_len = 2656;
unsigned char g_model_input[] = {
  0x75, 0x57, 0x09, 0x3f
};
unsigned int g_model_input_len = 4;

#include <tensorflow/lite/micro/all_ops_resolver.h>
#include <tensorflow/lite/micro/micro_error_reporter.h>
#include <tensorflow/lite/micro/micro_interpreter.h>
#include <tensorflow/lite/micro/testing/micro_test.h>
#include <tensorflow/lite/schema/schema_generated.h>
#include <tensorflow/lite/version.h>
    int g_model_input_ndims = 2;
int g_model_input_shape[] = {1, 1};
TfLiteType g_model_input_dtype = kTfLiteFloat32;
int g_model_output_ndims = 2;
int g_model_output_shape[] = {1, 1};
TfLiteType g_model_output_dtype = kTfLiteFloat32;
